TRT-7000-EntropyCalibration2
input_1: 3c010a14
conv1/convolution: 3d457120
conv1/BiasAdd: 3d457120
bn_conv1/batchnorm/mul_1: 3ddf0af4
bn_conv1/batchnorm/add_1: 3e0517ea
activation_1/Relu: 3dadbfbb
block_1a_conv_1/convolution: 3e51a019
block_1a_conv_1/BiasAdd: 3e51a019
block_1a_bn_1/batchnorm/mul_1: 3dd162bf
block_1a_bn_1/batchnorm/add_1: 3dc72234
block_1a_relu_1/Relu: 3da080fc
block_1a_conv_2/convolution: 3d9a0c1d
block_1a_conv_2/BiasAdd: 3d9a0c1d
block_1a_bn_2/batchnorm/mul_1: 3dfcbbf9
block_1a_bn_2/batchnorm/add_1: 3db2a5f5
block_1a_conv_shortcut/convolution: 3db3b2ee
block_1a_conv_shortcut/BiasAdd: 3db3b2ee
block_1a_bn_shortcut/batchnorm/mul_1: 3dd2394d
block_1a_bn_shortcut/batchnorm/add_1: 3dbd704b
add_1/add: 3e179f07
block_1a_relu/Relu: 3dcbbeb9
block_1b_conv_1/convolution: 3e35dd3e
block_1b_conv_1/BiasAdd: 3e35dd3e
block_1b_bn_1/batchnorm/mul_1: 3dc3ca13
block_1b_bn_1/batchnorm/add_1: 3db10769
block_1b_relu_1/Relu: 3d7b01d2
block_1b_conv_2/convolution: 3d8e94c1
block_1b_conv_2/BiasAdd: 3d8e94c1
block_1b_bn_2/batchnorm/mul_1: 3dba4c7c
block_1b_bn_2/batchnorm/add_1: 3da247fd
add_2/add: 3dd926da
block_1b_relu/Relu: 3e071a38
block_2a_conv_1/convolution: 3e52124f
block_2a_conv_1/BiasAdd: 3e52124f
block_2a_bn_1/batchnorm/mul_1: 3d971c87
block_2a_bn_1/batchnorm/add_1: 3d87ead4
block_2a_relu_1/Relu: 3d5cca51
block_2a_conv_2/convolution: 3d933cdd
block_2a_conv_2/BiasAdd: 3d933cdd
block_2a_bn_2/batchnorm/mul_1: 3d926e64
block_2a_bn_2/batchnorm/add_1: 3d7b7064
block_2a_conv_shortcut/convolution: 3da40d6d
block_2a_conv_shortcut/BiasAdd: 3da40d6d
block_2a_bn_shortcut/batchnorm/mul_1: 3d6ec57b
block_2a_bn_shortcut/batchnorm/add_1: 3d7369f5
add_3/add: 3db16d78
block_2a_relu/Relu: 3d9f7dc1
block_2b_conv_1/convolution: 3df26707
block_2b_conv_1/BiasAdd: 3df26707
block_2b_bn_1/batchnorm/mul_1: 3d80923d
block_2b_bn_1/batchnorm/add_1: 3d598343
block_2b_relu_1/Relu: 3d2baacc
block_2b_conv_2/convolution: 3d3d3c16
block_2b_conv_2/BiasAdd: 3d3d3c16
block_2b_bn_2/batchnorm/mul_1: 3d924a98
block_2b_bn_2/batchnorm/add_1: 3d85774b
add_4/add: 3db0e4e0
block_2b_relu/Relu: 3db0e4e0
block_3a_conv_1/convolution: 3dfdfd13
block_3a_conv_1/BiasAdd: 3dfdfd13
block_3a_bn_1/batchnorm/mul_1: 3d81ea80
block_3a_bn_1/batchnorm/add_1: 3d57a76b
block_3a_relu_1/Relu: 3d427d7f
block_3a_conv_2/convolution: 3d2d435a
block_3a_conv_2/BiasAdd: 3d2d435a
block_3a_bn_2/batchnorm/mul_1: 3d8f0bce
block_3a_bn_2/batchnorm/add_1: 3d7ca7a1
block_3a_conv_shortcut/convolution: 3d683b47
block_3a_conv_shortcut/BiasAdd: 3d683b47
block_3a_bn_shortcut/batchnorm/mul_1: 3d4467a2
block_3a_bn_shortcut/batchnorm/add_1: 3d38f254
add_5/add: 3d8658cf
block_3a_relu/Relu: 3d76697f
block_3b_conv_1/convolution: 3da38f1d
block_3b_conv_1/BiasAdd: 3da38f1d
block_3b_bn_1/batchnorm/mul_1: 3d8603cb
block_3b_bn_1/batchnorm/add_1: 3d7b6132
block_3b_relu_1/Relu: 3d4faedd
block_3b_conv_2/convolution: 3d1cef0c
block_3b_conv_2/BiasAdd: 3d1cef0c
block_3b_bn_2/batchnorm/mul_1: 3dab828b
block_3b_bn_2/batchnorm/add_1: 3d93626a
add_6/add: 3d96559a
block_3b_relu/Relu: 3d923ff5
block_4a_conv_1/convolution: 3e07c748
block_4a_conv_1/BiasAdd: 3e07c748
block_4a_bn_1/batchnorm/mul_1: 3d8df9ca
block_4a_bn_1/batchnorm/add_1: 3d8107a8
block_4a_relu_1/Relu: 3d6bad20
block_4a_conv_2/convolution: 3d6c83e1
block_4a_conv_2/BiasAdd: 3d6c83e1
block_4a_bn_2/batchnorm/mul_1: 3da751be
block_4a_bn_2/batchnorm/add_1: 3d936b84
block_4a_conv_shortcut/convolution: 3d938ff8
block_4a_conv_shortcut/BiasAdd: 3d938ff8
block_4a_bn_shortcut/batchnorm/mul_1: 3d47c186
block_4a_bn_shortcut/batchnorm/add_1: 3d332306
add_7/add: 3db941dc
block_4a_relu/Relu: 3dadb7af
block_4b_conv_1/convolution: 3e4200bd
block_4b_conv_1/BiasAdd: 3e4200bd
block_4b_bn_1/batchnorm/mul_1: 3d87059d
block_4b_bn_1/batchnorm/add_1: 3d69facc
block_4b_relu_1/Relu: 3d4234ea
block_4b_conv_2/convolution: 3d8234fe
block_4b_conv_2/BiasAdd: 3d8234fe
block_4b_bn_2/batchnorm/mul_1: 3e0856fe
block_4b_bn_2/batchnorm/add_1: 3dd82bc7
add_8/add: 3e00d2aa
block_4b_relu/Relu: 3e08ba76
output_bbox/convolution: 3e252c53
output_bbox/BiasAdd: 3e1d5146
output_cov/convolution: 3e5d58b2
output_cov/BiasAdd: 3e674a90
output_cov/Sigmoid: 3c061bee
